// NanoMamba INT8 Weight Memory
// 4736 bytes (4.6 KB)
// Format: hex, one byte per line
// Generated by export_weights.py
// Author: Jin Ho Choi, Ph.D.

// 0x0000
26
1C
21
1F
F3
FD
2A
0B
1C
C3
22
33
CE
D5
35
EE
// 0x0010
2A
34
23
FB
07
14
D9
07
FC
EE
01
D9
D4
EC
0B
D8
// 0x0020
26
16
30
E7
39
D8
E2
32
12
01
2F
E7
16
34
D7
D9
// 0x0030
0A
D1
1E
CE
0A
15
D1
35
17
F8
FD
1D
34
2D
2D
15
// 0x0040
23
EC
22
D9
27
2B
D2
E4
D7
FE
04
F5
C2
E0
E0
E6
// 0x0050
D5
C6
05
C5
F4
3D
30
CE
C1
C3
0C
38
17
29
14
F8
// 0x0060
2B
35
DA
15
DD
3D
04
30
E5
1B
1B
F6
C1
C9
F3
C0
// 0x0070
FF
D4
CC
EE
FB
D3
C1
3E
D4
D9
33
EE
E0
04
D3
DE
// 0x0080
0B
11
22
0D
F9
0D
D5
DC
D5
30
16
C6
3C
D8
0F
C1
// 0x0090
2B
32
D3
2E
18
2B
27
C5
F0
3E
CD
0A
1A
E1
17
C6
// 0x00A0
FA
24
E2
DC
3E
09
1D
26
E9
1E
F5
E3
3F
07
32
CB
// 0x00B0
1B
3D
09
0A
FB
CA
08
39
0F
23
09
1D
CE
27
D6
FB
// 0x00C0
FD
C0
01
34
FD
3B
F1
D7
EE
0A
C1
09
FD
CB
0E
DE
// 0x00D0
F2
12
DD
F3
2B
C7
29
21
F6
1E
E4
C3
33
C4
F5
3B
// 0x00E0
FF
3B
E8
D7
38
05
3D
37
C2
EC
24
CB
24
CD
E5
1C
// 0x00F0
F2
CF
C8
DB
C6
E2
E8
EE
D4
38
E7
EB
08
2B
13
33
// 0x0100
E6
F8
E7
D0
D1
15
25
C3
C3
E9
2A
32
18
E2
F4
31
// 0x0110
FB
E9
F3
37
CD
E8
F3
D0
31
E0
33
0E
39
E7
EA
22
// 0x0120
C8
EB
3B
0D
19
1D
D6
C4
F4
CA
C1
D9
C1
1B
DB
FB
// 0x0130
13
25
E9
EF
1B
18
F3
FD
2E
15
ED
30
FB
1B
2A
EE
// 0x0140
06
25
FD
DF
EB
FD
E8
DC
3C
29
03
3E
C7
03
0C
15
// 0x0150
EE
EF
0D
C8
E2
E0
21
EC
0D
F8
09
28
10
CC
DC
24
// 0x0160
E3
27
FF
02
F1
C6
E7
EE
27
CF
DB
E9
C3
1D
1F
01
// 0x0170
C1
0C
0C
0F
3D
C3
17
2C
C5
ED
E3
C5
F5
EA
FB
F5
// 0x0180
29
F4
35
CB
C3
0F
14
D1
F5
DF
12
EF
1C
E5
C4
C8
// 0x0190
FE
F2
F6
38
D1
39
DF
17
19
DA
2F
06
EB
D6
E3
33
// 0x01A0
E1
C0
C3
30
09
D0
E8
25
FD
27
D3
25
23
C3
F9
2D
// 0x01B0
CD
39
CF
D9
1E
3F
EE
FA
EF
33
3F
2B
CE
ED
D8
13
// 0x01C0
07
31
E7
D6
0D
DD
C8
D2
16
2E
EB
F2
3B
24
15
C5
// 0x01D0
38
C3
D4
CB
FD
1E
CF
36
E7
19
08
13
14
1E
F3
18
// 0x01E0
0F
1A
C0
23
2C
1E
10
FF
11
E1
37
05
2E
03
E9
CA
// 0x01F0
F4
E4
E8
14
D7
13
F5
D6
D9
EF
14
1B
18
38
DA
37
// 0x0200
3B
12
2B
07
FB
D8
26
DB
3B
E1
2E
CA
2C
21
E7
06
// 0x0210
E8
DC
D3
E4
DC
D4
18
0B
CE
08
1C
0D
EC
2F
0E
EA
// 0x0220
00
00
D5
D3
18
FF
C0
C4
06
DF
E4
3C
C8
CA
24
2C
// 0x0230
17
15
F1
05
C0
34
D6
25
2B
C7
1F
F2
C7
CA
E2
0B
// 0x0240
17
25
29
C1
FE
FC
DA
C3
CA
D4
02
10
32
15
27
F2
// 0x0250
10
DA
34
F4
C7
C1
DA
F6
E2
F6
E0
FA
E2
31
08
0A
// 0x0260
E0
39
31
05
3A
F1
E0
DB
C4
D7
34
D2
29
CD
E2
2D
// 0x0270
26
28
04
1B
39
3B
EC
E6
E8
D8
E9
DD
DB
0C
FA
2A
// 0x0280
C6
18
34
1C
08
E0
DC
19
07
37
D0
DF
CB
F3
CF
33
// 0x0290
E1
FB
F5
14
E0
0C
2C
D8
EF
1C
05
D0
36
31
2D
1E
// 0x02A0
D6
C9
DC
0F
FD
EE
F9
EB
17
F6
FF
13
E4
23
39
EA
// 0x02B0
22
38
07
FA
EB
0A
1F
D7
27
37
F6
E3
15
EA
14
06
// 0x02C0
1A
1F
E0
23
E2
E6
ED
CF
00
D3
23
38
22
3E
C7
22
// 0x02D0
24
FA
DD
DE
EE
DF
02
38
0D
F5
D7
F6
C2
2A
12
19
// 0x02E0
C0
0F
02
02
C4
04
03
F8
19
1C
EF
CF
36
C1
29
FC
// 0x02F0
3E
DA
1E
05
CD
F1
CD
01
26
23
29
3E
DA
1B
19
CA
// 0x0300
C8
11
11
C5
0E
C0
2E
F5
CE
14
33
2D
19
17
23
DC
// 0x0310
E9
1E
C1
C6
3B
1B
38
30
0C
05
DE
DB
F2
1E
E3
F3
// 0x0320
FE
FE
CB
C8
1F
03
10
25
26
0A
2B
E2
30
1C
F1
39
// 0x0330
F3
E2
39
10
3C
13
F2
D0
1F
F0
F1
C2
C3
17
CD
F2
// 0x0340
1D
06
16
28
24
F9
EB
E3
D6
DD
11
FF
26
D8
FB
DA
// 0x0350
2C
1A
CE
29
CE
C6
F3
CA
EA
0C
2B
01
DC
12
3B
F3
// 0x0360
E3
C4
D2
FA
CC
1A
1E
31
DF
34
F4
D3
06
FF
0F
D9
// 0x0370
FA
E6
ED
0A
32
2C
1D
F1
15
0C
05
E9
DB
17
26
21
// 0x0380
01
EA
C0
2E
E9
EA
15
DF
EC
3A
20
0E
FD
E6
EE
0B
// 0x0390
00
45
E6
E2
34
EB
C1
DB
C5
CA
D8
1F
DB
33
1F
34
// 0x03A0
DB
34
FD
0D
2B
F6
2B
F7
EB
CE
03
EF
13
25
E0
2A
// 0x03B0
DD
FF
3E
24
FD
E7
DE
22
0A
15
D2
CA
3F
06
C8
13
// 0x03C0
39
25
F4
0E
36
E7
01
DF
1B
FD
26
25
18
15
F6
1B
// 0x03D0
26
EC
28
11
FD
28
E5
28
20
1C
EC
DC
C0
35
EA
05
// 0x03E0
38
35
19
FA
DA
C5
0F
E5
FD
2F
16
2D
38
DA
E2
C0
// 0x03F0
33
2A
29
11
0C
33
01
1A
28
16
18
1C
C2
E5
C6
0E
// 0x0400
26
DD
07
C1
05
22
E6
EA
07
15
00
C2
DA
D5
FA
C8
// 0x0410
C8
32
1B
2A
FD
11
DD
3C
E4
CE
1C
F8
20
3C
03
F1
// 0x0420
F2
3F
EF
DE
29
F4
38
04
EB
32
2D
16
D7
C2
3F
FE
// 0x0430
0E
C7
22
31
FA
DF
D5
EB
35
2D
FD
12
DF
2E
C0
F8
// 0x0440
1F
36
0F
C4
17
05
1F
CE
28
CC
39
F3
F3
0E
21
27
// 0x0450
30
14
D6
1D
FD
07
DC
D0
30
F5
06
38
F9
D9
C0
01
// 0x0460
F3
32
22
36
CB
05
F3
FF
3D
0D
34
00
E6
3F
00
F2
// 0x0470
C1
ED
0B
3F
C2
1D
17
F6
30
1C
C6
0D
24
C6
29
E5
// 0x0480
30
0E
2B
08
F7
2B
2B
3F
10
2C
31
C9
FA
02
0B
04
// 0x0490
30
28
CC
DC
C1
30
C3
3A
C1
D2
EF
C0
1B
F8
F9
29
// 0x04A0
F5
F6
ED
CD
16
C3
36
C8
24
1F
15
07
1F
D6
16
18
// 0x04B0
20
DC
C4
28
C0
19
24
E2
D2
2D
13
FD
3D
F6
02
EE
// 0x04C0
C1
14
D7
E5
F4
14
2B
C7
EB
06
0C
3D
19
2A
E1
32
// 0x04D0
DF
D6
13
3C
05
26
CA
CD
DF
15
37
FD
36
38
FA
D7
// 0x04E0
03
D3
D1
EC
F6
0D
F2
D4
0A
C0
39
02
F7
EC
E1
1E
// 0x04F0
3A
10
15
FC
D0
F1
3E
FD
3E
22
2C
FA
E5
D1
DA
0D
// 0x0500
D7
C9
E7
1E
04
DF
25
38
33
0B
1E
E1
21
DE
01
3B
// 0x0510
05
C0
EF
E2
15
1B
D9
26
CA
C7
E8
C9
3E
ED
C1
11
// 0x0520
2F
FA
DD
D7
CF
18
20
0C
20
22
16
15
08
2C
D5
E6
// 0x0530
3B
E4
DE
12
FA
10
D9
C2
05
ED
FF
EF
0F
09
E0
F2
// 0x0540
1C
FD
30
CA
C2
27
FD
1B
D3
02
04
D7
3B
CA
32
13
// 0x0550
FA
1B
34
ED
E3
F7
21
F8
D2
D9
FF
C4
19
25
CD
F6
// 0x0560
02
C7
D8
C3
3E
35
FB
0F
D2
E0
3B
F9
D3
EC
02
19
// 0x0570
1F
CB
EA
E5
06
C6
DF
D8
F3
07
E3
EC
28
E1
06
30
// 0x0580
E0
0B
21
F0
E7
07
07
25
3F
D6
C1
23
E6
1A
CB
C4
// 0x0590
11
C9
0D
2F
27
EB
34
16
C0
D2
F4
E3
CA
C7
3A
EC
// 0x05A0
1B
DF
10
17
F8
DF
F7
FC
18
D9
CC
DD
F1
F7
C5
F5
// 0x05B0
D6
F8
F8
2C
DE
15
DC
CA
1D
0F
D9
20
E9
2D
DE
F2
// 0x05C0
22
36
C8
02
C6
01
C2
FA
3B
F6
34
E8
CF
18
09
EC
// 0x05D0
19
39
F5
11
2F
22
2F
3B
38
E3
E1
CE
33
FF
02
C4
// 0x05E0
FB
EE
D7
C7
30
F3
05
02
C1
C8
2A
FD
C0
3B
CA
3F
// 0x05F0
EF
D5
15
D7
3D
F8
E5
37
CB
2E
EF
25
04
11
2C
CE
// 0x0600
E4
0C
C1
26
DF
34
34
21
3A
2F
D2
E2
36
DB
0F
F0
// 0x0610
C8
E8
0A
16
28
DC
24
07
22
0C
25
19
D2
E6
0A
F3
// 0x0620
EF
FB
18
F9
0F
08
FE
18
C2
C4
E9
25
D3
D1
F8
1B
// 0x0630
D7
D8
D8
23
F5
18
CD
27
37
2C
E5
07
E0
26
04
23
// 0x0640
D7
EF
1C
E4
33
32
16
19
0A
F2
CA
D5
30
06
C5
2F
// 0x0650
07
3F
20
E9
E3
D5
CC
09
E5
E5
C7
26
27
10
02
EB
// 0x0660
13
2F
FE
DB
3D
20
E7
D4
22
FC
1A
C2
2F
2C
0D
1F
// 0x0670
3D
C9
3A
D9
18
D5
EC
30
22
00
1B
E9
D8
C8
02
39
// 0x0680
1C
F7
0B
C1
D1
CB
EF
08
3F
F7
EA
E9
2D
13
EC
0E
// 0x0690
11
11
39
CC
01
EE
11
3C
F5
CB
E0
F1
E2
2C
0B
32
// 0x06A0
0F
2E
26
E6
FC
03
D4
3E
E8
F6
29
F9
23
2F
C9
ED
// 0x06B0
E0
20
11
F6
03
D6
E0
C4
E0
1B
FC
FC
CD
11
2F
3E
// 0x06C0
D4
25
0D
13
EF
13
07
ED
D3
CF
DA
FF
37
25
10
1D
// 0x06D0
3F
17
0E
E6
C7
35
C1
FE
C6
F4
26
19
02
C4
CF
F8
// 0x06E0
D0
11
19
E8
3F
D2
1D
0E
E0
EC
3C
D1
EF
2A
23
CA
// 0x06F0
0B
D1
3B
D7
FA
E3
01
C2
32
DF
E2
1E
15
F1
26
E2
// 0x0700
36
0D
24
03
D5
04
DE
00
2D
DA
36
FE
DD
06
C1
D7
// 0x0710
E5
F8
D7
39
25
F8
D8
3A
2C
CD
E2
24
F2
E2
DB
3C
// 0x0720
F5
E9
1D
24
C7
D7
36
27
DA
0D
D2
E1
DA
38
F4
2F
// 0x0730
21
00
38
0B
D4
FD
DE
19
DD
13
EC
C0
20
3E
E5
E5
// 0x0740
DB
39
EF
D3
2E
DB
FE
EB
FF
E3
D5
3E
20
D5
FA
1D
// 0x0750
04
31
3B
F1
3B
2B
2D
FA
FC
DF
32
F8
EF
E3
0B
3F
// 0x0760
D2
F2
20
07
C3
1E
2E
D2
E2
D2
F9
C6
FF
34
FF
04
// 0x0770
F0
EC
FD
E5
3F
DD
E9
CB
D0
E0
17
ED
EB
1C
DA
3E
// 0x0780
1B
24
01
30
DD
08
0E
38
1C
E9
F4
34
ED
04
D1
07
// 0x0790
34
CD
F4
2A
C5
EA
EC
22
22
F8
02
1E
3B
3F
2A
FF
// 0x07A0
28
36
34
C3
E4
C4
3C
33
D7
09
E6
2D
1C
CD
EC
14
// 0x07B0
30
39
DD
2D
ED
C1
C2
CD
F4
F0
36
37
1E
02
C1
D2
// 0x07C0
22
0C
EF
36
FB
C2
37
3A
20
13
1E
1A
33
24
09
D3
// 0x07D0
FE
C0
21
0B
3C
E8
02
0E
14
03
D5
22
DF
CB
1F
F0
// 0x07E0
16
D7
24
19
E0
04
FA
04
3F
0C
E1
11
02
0D
FB
3C
// 0x07F0
3F
20
23
EB
D1
28
28
1F
D8
C7
CA
CE
29
3F
CA
25
// 0x0800
1E
16
E7
2F
F5
1A
DE
18
F9
C2
EF
F2
02
D5
D5
2E
// 0x0810
27
C7
2F
D1
ED
0A
C6
D2
D7
CF
20
D8
31
F2
3B
F5
// 0x0820
DF
DD
31
DD
EE
CF
10
EB
15
EB
34
3D
D6
06
10
1B
// 0x0830
01
CB
1C
E3
3E
1E
D0
01
DA
00
F1
C4
29
E9
D8
0B
// 0x0840
C1
C5
DB
20
19
EF
D2
12
D0
C3
E3
FD
27
2C
02
19
// 0x0850
E0
DF
2F
F2
C8
DD
39
E2
EA
3F
15
F3
35
F0
3B
F5
// 0x0860
EF
DC
C7
1C
E6
DC
C5
CD
1C
15
E8
0B
E9
D6
28
0B
// 0x0870
36
0A
F2
0F
D9
02
36
2B
22
D7
23
0F
F1
07
D6
01
// 0x0880
D8
33
38
1D
D7
E9
CC
DC
CC
E2
0A
29
FB
1B
23
D4
// 0x0890
39
15
27
C2
C6
0B
13
C1
F8
1F
23
C0
E3
F0
FD
E0
// 0x08A0
EC
D2
1D
0C
D3
30
FB
F1
00
C9
24
E6
C7
EF
E9
D2
// 0x08B0
3F
D9
F4
F3
2D
DF
D3
25
CF
D1
F9
0B
CD
EA
3F
CC
// 0x08C0
0B
23
17
23
32
17
39
22
16
19
C6
16
CE
24
D1
C7
// 0x08D0
1B
F4
E6
20
21
3D
F0
D4
01
F3
CF
D8
DF
17
FF
30
// 0x08E0
16
EA
CA
D4
FE
27
C9
EC
15
C3
F3
C9
F2
10
C1
14
// 0x08F0
D8
2E
F1
37
F9
0E
F0
E7
FE
02
2A
CA
FD
2C
19
3B
// 0x0900
3C
04
1A
09
D5
18
04
16
F9
19
00
D7
F9
3A
03
1C
// 0x0910
15
1D
0E
C7
F0
39
D0
00
F3
E6
CF
C9
E9
D2
31
C9
// 0x0920
05
33
D5
12
CE
0F
E2
0D
F5
34
F5
1C
2A
FB
3E
C9
// 0x0930
FB
C9
C7
E0
24
2A
DF
13
20
FB
F1
C5
C7
F9
2F
13
// 0x0940
F4
0C
DE
05
FB
16
C3
05
2B
CB
00
F7
2B
FE
DA
37
// 0x0950
C4
00
35
DF
26
14
CF
35
03
14
19
D5
C5
13
CE
17
// 0x0960
2C
C3
FB
CD
1F
23
02
F1
33
1B
C6
C8
1D
3D
0E
29
// 0x0970
EE
D0
27
CA
22
FB
D3
F3
F6
DB
EE
E3
E7
DB
2B
E3
// 0x0980
F3
DF
21
F9
CF
DA
3B
E1
CC
31
11
39
31
D1
F3
38
// 0x0990
3B
02
EC
C4
29
F4
2F
F6
DD
06
ED
12
D2
26
C3
CA
// 0x09A0
D0
12
D1
0B
37
E0
D9
26
FE
03
15
05
D2
F7
3B
2E
// 0x09B0
1B
2E
20
30
F9
D4
39
FE
F6
F7
D5
D4
19
25
F8
00
// 0x09C0
24
22
3D
C6
19
3D
F0
EF
34
E0
30
36
FD
D7
F4
D4
// 0x09D0
D6
0B
C2
16
3E
C4
E6
2D
C8
1D
EB
F2
CB
C7
01
F0
// 0x09E0
34
E3
F1
28
C0
06
25
CE
F9
C4
1D
EC
39
32
0B
2A
// 0x09F0
C0
02
CC
E8
2E
3E
FD
31
E1
2B
CF
00
1F
F4
22
FD
// 0x0A00
3D
DE
DA
CC
35
D4
C8
D8
EF
02
2F
F6
18
0E
10
EE
// 0x0A10
27
F1
C2
E9
2C
1C
02
2F
34
FF
E9
07
C0
F3
25
E3
// 0x0A20
CF
CD
32
34
FC
F4
06
C4
26
0F
26
FC
FF
32
F8
E8
// 0x0A30
FE
E5
2A
CD
04
02
C8
2F
D5
FB
D9
DC
1C
1B
23
FA
// 0x0A40
36
28
2A
2B
02
DF
F7
CC
0B
0C
2B
FF
D9
10
27
D0
// 0x0A50
CF
C6
E1
1B
F2
CD
DD
E8
24
F3
C2
02
15
DC
03
DE
// 0x0A60
F8
0A
EF
C3
DC
2D
C5
17
0D
2F
F6
DD
1B
E4
C0
D7
// 0x0A70
04
14
06
CB
EE
EC
DA
D8
30
F3
2D
CA
1D
08
F8
0F
// 0x0A80
2D
36
3F
1A
FD
F3
01
3A
33
2B
E2
F4
04
31
22
EC
// 0x0A90
0B
34
23
39
CF
EB
24
C4
19
E8
CB
D9
19
19
2B
03
// 0x0AA0
EF
C9
1A
3D
14
19
D1
0E
E6
32
F5
39
23
26
E7
18
// 0x0AB0
E0
35
16
EC
3D
1C
34
36
1D
26
D0
2F
24
D1
17
E6
// 0x0AC0
D6
28
C4
26
39
D6
0D
CC
C9
1A
E8
DD
35
F6
3B
32
// 0x0AD0
04
3F
D5
E2
23
3C
3D
22
E1
CB
D9
CB
F3
2C
09
02
// 0x0AE0
1E
DC
26
1F
C9
3F
2A
C3
39
1A
F8
E0
D2
EE
35
2E
// 0x0AF0
F9
C9
0D
C0
1F
E6
04
C0
C0
2B
02
1B
37
E3
D4
CA
// 0x0B00
04
E5
E0
E8
2C
FF
D8
EF
C3
D2
F6
E9
CF
2C
E8
DD
// 0x0B10
D7
0B
D0
D2
0F
21
E2
31
36
D6
35
E4
C1
39
FA
31
// 0x0B20
30
31
09
C6
1B
FF
C0
1E
3F
23
35
D5
DF
18
2B
E2
// 0x0B30
1A
2D
F2
30
13
C3
CB
0D
D7
06
12
D3
CB
27
1A
ED
// 0x0B40
F1
DA
1F
23
E2
EE
08
D2
3B
C9
EE
E4
E0
26
25
E0
// 0x0B50
E0
CF
10
35
FC
D3
EB
0F
F2
CA
ED
CB
EA
2D
D5
12
// 0x0B60
24
16
C3
31
CB
D5
FD
E0
02
DF
17
22
00
3E
C7
12
// 0x0B70
E0
D5
D0
36
E7
F4
07
E6
09
CF
05
27
EA
04
29
F4
// 0x0B80
EB
1E
DF
F2
DC
11
E2
06
CC
E9
01
D1
CB
10
2F
F6
// 0x0B90
1E
D6
0C
D9
ED
CD
D4
20
C1
EF
EA
C4
3C
3C
39
C9
// 0x0BA0
32
29
ED
D8
31
22
05
DE
E2
C8
19
EE
16
2A
E8
16
// 0x0BB0
10
2B
F9
D2
19
30
1D
E7
C7
23
E8
11
1C
1A
E9
22
// 0x0BC0
D9
FF
09
18
09
FB
3E
EE
19
E6
35
C5
3D
EB
F3
17
// 0x0BD0
E1
C1
C1
10
32
20
FC
02
28
E2
E7
08
C6
0F
3C
3E
// 0x0BE0
03
CC
00
DE
F9
03
21
F1
34
1D
1D
F2
31
D6
EC
19
// 0x0BF0
2C
25
C2
E1
0A
EC
08
2F
DC
C1
E2
20
37
DD
C8
CA
// 0x0C00
E3
DD
ED
FC
18
C2
3E
2A
D4
2D
F0
0D
3C
1B
F3
37
// 0x0C10
38
2A
F3
08
E3
22
07
CC
C9
ED
2C
ED
24
D7
28
2C
// 0x0C20
08
09
E8
00
D7
CB
CA
D1
FF
F8
CC
0E
22
0A
2F
D3
// 0x0C30
F0
FE
D1
3D
22
04
0D
FB
2F
0F
E1
29
E3
06
F0
E0
// 0x0C40
11
D3
FC
1F
30
D3
C1
00
26
3F
02
06
1F
C8
DE
D4
// 0x0C50
D7
26
FE
17
D6
1A
3B
1D
FD
DC
06
2E
1F
3E
16
CF
// 0x0C60
E4
30
00
1B
CB
EF
D4
FD
30
CD
12
2D
F6
0E
CA
EE
// 0x0C70
CC
D6
F9
00
D6
E9
2A
FD
18
F8
E9
01
22
CB
3D
FC
// 0x0C80
28
13
26
DA
DD
17
F2
20
D0
F5
CD
27
30
EF
09
C8
// 0x0C90
FD
F8
18
C1
13
E2
DE
3F
2F
F7
D2
13
18
C2
FE
23
// 0x0CA0
15
05
2E
11
CC
11
F1
0C
FA
C2
01
25
D2
DC
D8
D9
// 0x0CB0
F0
F8
E2
23
23
F6
F1
CD
CB
01
06
C2
FC
39
22
35
// 0x0CC0
28
DC
07
27
D2
1F
1E
18
0B
D0
1E
D7
C8
D1
1B
1A
// 0x0CD0
06
C9
FE
11
DB
27
30
34
0D
02
F7
33
1E
0A
00
ED
// 0x0CE0
3F
3D
1A
33
F3
3E
C6
3B
12
13
0C
D2
39
2D
F6
3E
// 0x0CF0
2E
D5
00
E1
CF
E0
12
D5
34
13
0D
32
04
2C
39
D7
// 0x0D00
22
1C
CF
0B
CB
D1
F9
DA
D8
1C
E3
14
F3
3B
FF
CD
// 0x0D10
3A
EB
EA
EC
14
15
35
F6
23
DD
DB
00
F4
0E
F9
32
// 0x0D20
D6
2C
E4
0A
CF
C4
C3
08
F8
2A
E4
0A
E6
C4
CC
DD
// 0x0D30
2C
08
19
D7
F4
1E
11
2E
E9
14
D2
3E
F9
14
28
39
// 0x0D40
E6
EB
FC
CE
CD
19
35
3E
1E
2C
ED
CC
39
D2
0D
CE
// 0x0D50
C4
E4
C8
31
E2
1C
EE
FC
16
D4
00
23
1C
E2
01
CB
// 0x0D60
2A
D0
15
19
0A
1F
F1
F4
D1
DA
38
DD
2E
D2
39
37
// 0x0D70
0B
DA
DB
E4
C8
FC
E2
F0
09
1C
32
02
F9
03
03
16
// 0x0D80
2B
C9
03
DE
D0
DB
2B
1D
3C
EC
23
D9
25
EC
E6
16
// 0x0D90
C6
C6
C8
D5
ED
14
D4
2D
CC
F6
32
F3
E7
04
3A
F8
// 0x0DA0
E9
D8
E0
D2
C8
35
CA
25
F1
2B
25
12
DA
1B
13
24
// 0x0DB0
39
0A
0C
F4
01
24
C7
E5
C4
06
13
D4
DC
18
29
C3
// 0x0DC0
E4
2C
F7
D5
E5
15
F4
FB
12
29
D4
3C
C7
2E
10
D4
// 0x0DD0
2F
F5
10
1F
2C
E5
36
1C
00
27
22
1E
15
05
1F
21
// 0x0DE0
33
E1
D3
10
D0
26
D7
FC
3E
21
3E
32
06
DD
1E
28
// 0x0DF0
18
D0
2A
3C
EC
C5
C6
D7
C3
24
1D
00
E3
27
E7
19
// 0x0E00
05
CC
12
20
3B
1C
0B
F5
DE
0D
20
D5
D2
C7
0E
3B
// 0x0E10
FC
D9
33
06
2B
0B
03
20
F5
D4
33
CE
E6
28
C0
F4
// 0x0E20
1A
10
D9
2C
09
22
EC
FF
19
17
C6
28
D2
2E
CB
14
// 0x0E30
E6
30
37
DC
3D
FC
F8
2F
02
ED
DC
3E
EC
10
31
00
// 0x0E40
CC
D2
28
C2
31
12
FB
27
1B
E4
3A
37
3D
CE
0C
D2
// 0x0E50
F9
24
29
CE
D3
36
F0
FD
1B
19
2A
DE
07
21
26
04
// 0x0E60
FC
F3
D6
DE
3E
23
E2
12
28
E5
F2
E6
E6
E7
C4
FE
// 0x0E70
C0
0C
3C
FE
C2
D9
18
EE
0C
E7
17
D5
1B
F9
0D
FC
// 0x0E80
FD
30
10
36
38
C1
35
26
FE
C4
37
1F
3B
C5
0B
3A
// 0x0E90
30
2D
E4
09
D8
1D
F8
D5
F7
C3
1C
1E
E0
03
03
C7
// 0x0EA0
E5
D3
FD
F9
34
F4
F3
2F
C5
00
D5
36
F9
C8
17
0D
// 0x0EB0
EB
CE
DC
C3
EC
F2
17
3A
DF
3A
09
38
EC
18
16
CE
// 0x0EC0
FC
C7
CC
CB
EE
D3
DB
12
D4
34
E1
24
0F
10
DC
CB
// 0x0ED0
35
2B
D7
C7
14
2C
F5
2C
0A
30
F2
3E
3B
EA
0B
2B
// 0x0EE0
24
14
24
D2
E3
36
03
00
22
24
09
CD
D2
36
C6
F2
// 0x0EF0
D3
F6
E4
38
F8
ED
0F
D3
D1
FD
29
C5
EE
D8
CD
EA
// 0x0F00
28
04
E0
E1
F0
0D
C0
F7
CD
D6
DC
F2
CE
34
23
0B
// 0x0F10
DE
0D
1C
34
C0
0E
2E
3E
34
E5
E7
E0
F5
EE
29
F2
// 0x0F20
35
DF
D5
D5
C2
CD
1B
22
CF
0A
F2
26
16
E1
F2
FC
// 0x0F30
F8
1F
E2
CB
0A
DB
0E
2A
CB
F4
2D
07
09
C5
2D
35
// 0x0F40
1F
EA
0E
33
CF
EB
10
CE
07
13
28
23
25
21
3F
24
// 0x0F50
0B
2B
E5
34
D7
1D
14
DB
DB
C2
01
DE
34
11
2D
15
// 0x0F60
C7
34
C2
07
39
E4
30
EB
1B
F5
E8
F0
E3
1A
D7
E5
// 0x0F70
19
30
F4
36
C7
CE
25
23
F9
0A
35
1A
FB
DD
F9
FA
// 0x0F80
F1
3C
2A
D5
DB
C2
D4
04
1B
2A
26
D3
24
D3
FF
1C
// 0x0F90
E8
30
31
39
23
D2
CC
02
FF
0E
38
3C
DA
D7
C7
34
// 0x0FA0
35
F9
FA
F2
FE
1B
05
C8
D0
DC
FD
C9
08
D4
DE
07
// 0x0FB0
E0
F3
FD
0F
34
17
04
29
13
1E
14
10
0C
29
0F
DA
// 0x0FC0
1B
CA
0A
EF
2F
3A
1D
05
DC
03
E1
E9
CC
2B
D8
E2
// 0x0FD0
ED
C6
F2
29
E2
1E
C1
D3
3C
0C
D1
12
C5
F1
06
30
// 0x0FE0
11
D6
E6
33
32
1B
E8
2A
3F
00
08
F9
04
D2
07
D4
// 0x0FF0
EE
07
C8
DD
D8
E7
0F
2B
01
39
D1
2B
C9
C0
EF
D5
// 0x1000
F7
0B
07
2E
DD
23
2C
20
31
1C
F6
1D
3A
1C
F4
CD
// 0x1010
2C
33
D3
CB
C4
D4
F2
EA
36
3C
FF
C6
37
C3
08
29
// 0x1020
E0
27
1F
20
35
31
D0
07
00
2C
C0
0F
D1
C8
39
3A
// 0x1030
1F
E0
FE
3C
2E
F4
FB
3C
F0
F8
C1
E6
CA
37
31
20
// 0x1040
14
33
D8
D8
D9
1D
24
FF
FE
D0
C2
21
18
34
DA
24
// 0x1050
15
0F
0C
38
FA
DB
04
14
DA
DB
D5
17
F0
12
EF
D1
// 0x1060
0C
F5
DC
16
E0
0F
02
D0
21
06
3C
37
28
E8
2D
C9
// 0x1070
22
DC
F1
2A
3E
E1
04
E2
C0
C1
3E
05
D4
C1
C0
C3
// 0x1080
2F
DF
2E
CE
F6
FB
0A
D3
C5
32
1E
1D
1B
F1
D4
F1
// 0x1090
10
07
DA
10
04
2A
0A
C8
1E
3F
2D
3F
C4
E6
3A
FF
// 0x10A0
25
D7
E3
3F
C2
FB
05
29
F4
05
F0
CE
D6
1C
0C
D5
// 0x10B0
24
1B
1C
04
F4
CE
23
F9
E4
EA
1C
31
09
D2
10
01
// 0x10C0
09
3D
C2
19
12
10
FA
20
D0
F4
12
FF
14
FC
F7
FD
// 0x10D0
0D
1C
16
33
08
19
3D
F4
2D
D7
D0
E1
C0
C8
1E
00
// 0x10E0
F2
F0
FC
34
EC
12
14
06
0C
02
EE
DB
C3
1F
CC
F5
// 0x10F0
FD
15
C8
FA
00
D1
13
20
30
D3
34
EB
27
F1
0A
01
// 0x1100
DF
E7
FD
DE
E1
28
C1
CC
1B
CD
F0
1B
1E
F8
07
04
// 0x1110
07
DC
D2
DD
E6
26
ED
C5
D9
F8
2C
EB
39
00
C7
3F
// 0x1120
E1
22
F2
C5
F5
31
28
39
35
E8
F6
05
C2
03
14
14
// 0x1130
3A
2F
E9
C5
F1
3D
0A
0E
CB
D1
E8
1A
00
E7
3E
10
// 0x1140
F5
04
09
CD
2B
E0
0D
37
C4
E1
D9
CF
1D
2B
E1
D6
// 0x1150
1D
1E
2C
20
3A
D2
F4
0A
F8
E7
0A
27
D0
19
C7
D7
// 0x1160
2F
12
0E
E2
3E
0A
24
3A
EE
0D
1E
C7
D6
FB
E8
2B
// 0x1170
0E
EC
10
01
24
C4
20
08
14
DB
0C
DE
CD
EF
ED
E3
// 0x1180
01
D2
FE
F4
0A
28
D7
0E
F2
11
C4
F6
26
28
F4
27
// 0x1190
E5
FD
29
E2
FF
3E
C4
DE
3B
F2
F9
C3
21
DA
3F
3A
// 0x11A0
E5
DB
00
19
F1
E5
EB
DB
21
18
C4
D7
11
DF
3B
E2
// 0x11B0
DD
DB
2A
24
0E
25
C8
CE
1A
1B
3E
2F
F2
29
0B
D7
// 0x11C0
FE
31
36
27
21
E7
35
F9
F3
05
E7
19
38
30
E5
CC
// 0x11D0
E5
10
D4
C3
20
1D
2E
33
17
3B
DD
08
0E
E5
D4
29
// 0x11E0
3B
13
C3
25
DD
D2
07
0C
36
D2
01
DF
29
0C
CA
C6
// 0x11F0
F2
1E
03
1C
10
E8
D8
F2
C4
08
D3
33
DC
D3
25
0B
// 0x1200
C3
DB
E6
E5
C9
00
D7
35
F7
18
F4
2D
D0
0D
D3
17
// 0x1210
09
15
3B
3D
D0
0B
17
04
3B
0D
DC
02
13
17
34
D0
// 0x1220
17
2B
C9
35
04
D0
FD
CB
E1
2A
23
3A
C5
DF
2D
DE
// 0x1230
F4
F8
DC
3E
01
D5
30
18
0C
D0
E9
14
3D
D8
C9
F5
// 0x1240
2A
CE
E6
E2
EA
30
23
D4
2F
EE
3A
FD
0A
EF
30
17
// 0x1250
32
07
2B
D3
2E
D8
CA
C9
38
02
3E
E0
D6
1E
0A
35
// 0x1260
F6
DC
07
E0
0F
FB
F3
D5
1E
D8
23
E6
0A
D7
3A
26
// 0x1270
35
ED
CA
E3
CF
17
DA
F2
C7
1E
D0
E4
C3
23
D8
EE
